<unk> 0
▁क 1
▁ह 2
▁म 3
▁स 4
▁प 5
▁ब 6
▁ज 7
्य 8
▁के 9
ार 10
▁ल 11
▁आ 12
▁त 13
▁अ 14
▁द 15
▁ক 16
्र 17
▁है 18
ें 19
्या 20
▁न 21
▁र 22
▁व 23
▁कर 24
য় 25
்க 26
ला 27
ान 28
▁ख 29
ता 30
▁का 31
▁भ 32
▁ব 33
▁আ 34
▁हो 35
▁ग 36
▁প 37
ना 38
▁ए 39
▁च 40
ার 41
்த 42
▁य 43
ம் 44
▁স 45
▁में 46
▁जा 47
▁उ 48
ां 49
र् 50
▁ప 51
िक 52
▁এ 53
▁छ 54
▁कि 55
▁फ 56
▁হ 57
্য 58
ती 59
▁ম 60
ड़ 61
▁से 62
स् 63
ले 64
िय 65
ക് 66
ने 67
▁క 68
▁ಮ 69
ही 70
▁ப 71
ന് 72
க்க 73
▁को 74
ते 75
ன் 76
ান 77
सा 78
▁एक 79
న్ 80
▁की 81
▁వ 82
ের 83
▁మ 84
▁য 85
▁అ 86
್ತ 87
ல் 88
▁வ 89
हे 90
हा 91
ని 92
▁इ 93
▁प्र 94
▁দ 95
்ட 96
से 97
లు 98
हि 99
▁श 100
▁அ 101
▁दे 102
ನ್ 103
▁ಕ 104
न् 105
मा 106
▁ত 107
वा 108
స్ 109
ಲ್ 110
रा 111
▁ಬ 112
ార 113
▁ಅ 114
के 115
▁ಹ 116
ரு 117
▁ਹ 118
ந்த 119
▁ನ 120
▁ಸ 121
ங்க 122
▁पर 123
क् 124
▁ন 125
▁க 126
▁ला 127
▁हम 128
▁बा 129
ంట 130
▁చ 131
▁இ 132
ത് 133
री 134
▁ਕ 135
▁सा 136
▁खा 137
ली 138
त् 139
ति 140
▁ले 141
তে 142
్ర 143
್ರ 144
కు 145
്ട 146
ப் 147
টা 148
▁औ 149
ాల 150
▁हैं 151
▁मा 152
লা 153
ಂದ 154
ছে 155
▁অ 156
து 157
ది 158
▁ਸ 159
▁ந 160
্র 161
ಾರ 162
▁ம 163
లో 164
▁কর 165
▁న 166
▁मि 167
ക്ക 168
ಲ್ಲ 169
दा 170
का 171
▁ச 172
▁কি 173
▁और 174
কে 175
▁আম 176
▁জ 177
▁స 178
▁ਦ 179
▁आहे 180
▁दि 181
লে 182
▁କ 183
ന്ന 184
नी 185
క్ 186
ట్ 187
▁घ 188
ப்ப 189
▁भी 190
ಕ್ 191
▁പ 192
ोग 193
ಾಗ 194
ತ್ತ 195
▁അ 196
ర్ 197
▁গ 198
▁पा 199
ட்ட 200
ਾਂ 201
▁ट 202
वे 203
াৰ 204
ন্ 205
▁हु 206
▁ఎ 207
ंग 208
▁चा 209
க்கு 210
थे 211
▁मे 212
▁छै 213
▁सक 214
या 215
▁எ 216
ನ್ನ 217
▁ക 218
ను 219
▁త 220
్య 221
▁ਵ 222
▁চ 223
▁ಇ 224
▁ड 225
हु 226
▁ओ 227
ों 228
▁लग 229
த்த 230
▁वा 231
ैं 232
चा 233
್ಯ 234
त्र 235
▁स् 236
▁ఉ 237
▁वि 238
कार 239
▁ସ 240
াল 241
▁ਜ 242
ండ 243
ल् 244
▁हा 245
▁ਨ 246
িয় 247
▁த 248
▁ᱠ 249
ंद 250
న్న 251
च् 252
ರ್ 253
▁खे 254
▁ভ 255
▁जे 256
▁कु 257
ಗಳ 258
▁ପ 259
टी 260
को 261
म् 262
पा 263
▁ꯑ 264
ार् 265
ల్ 266
िया 267
ಗೆ 268
ిం 269
▁अप 270
াব 271
▁ర 272
ದು 273
▁सब 274
ிய 275
ும் 276
नि 277
मी 278
रे 279
గా 280
▁ଆ 281
াই 282
ും 283
▁ಪ 284
▁ന 285
▁బ 286
ந்து 287
িক 288
ठी 289
▁ते 290
▁ना 291
ায় 292
▁വ 293
▁ध 294
▁ಆ 295
ങ് 296
ள் 297
▁হয় 298
रू 299
▁बि 300
▁ತ 301
सी 302
▁रा 303
▁ବ 304
್ಟ 305
ர் 306
▁बी 307
▁हे 308
च्या 309
▁ఇ 310
▁এক 311
▁যে 312
▁सु 313
▁बहु 314
▁थ 315
सल 316
▁ਮ 317
ಿದ 318
▁ਪ 319
िए 320
্যা 321
కి 322
चे 323
స్త 324
ᱟᱹ 325
ାର 326
▁ਤ 327
▁ಮಾ 328
ರಿ 329
ல்ல 330
ोन 331
തി 332
▁आप 333
▁ಎ 334
ची 335
▁বা 336
ాయ 337
खा 338
নে 339
▁तो 340
ಾವ 341
▁ମ 342
▁मो 343
▁जो 344
ಲ್ಲಿ 345
ित 346
▁খ 347
്പ 348
▁पे 349
▁র 350
ून 351
ড় 352
টি 353
ढ़ 354
ട്ട 355
ैसे 356
▁ਅ 357
▁থ 358
▁मु 359
▁बहुत 360
ല് 361
▁সে 362
▁ਬ 363
ाय 364
▁ఆ 365
▁नि 366
்ச 367
യി 368
च्छ 369
তি 370
▁उप 371
লো 372
▁എ 373
मे 374
▁ಮಾಡ 375
कर 376
ರು 377
ണ്ട 378
▁வந்து 379
డు 380
▁बर 381
▁ఏ 382
▁अस 383
িন 384
बा 385
ில் 386
ᱱᱟ 387
ନ୍ 388
ன்ன 389
▁ವ 390
्ह 391
▁करे 392
▁फसल 393
ोज 394
లా 395
▁শ 396
▁ऐ 397
രു 398
▁सम 399
ారు 400
▁చే 401
ప్ 402
▁क्या 403
▁ফ 404
जा 405
ைய 406
▁ହ 407
త్ 408
▁सं 409
टा 410
खे 411
हाँ 412
▁ద 413
ంద 414
്റ 415
लो 416
▁ਇ 417
াম 418
▁ક 419
டி 420
ನ್ನು 421
రి 422
ानी 423
ంది 424
ରେ 425
ಕ್ಕ 426
▁ये 427
ানে 428
ह् 429
ങ്ങ 430
▁ᱟ 431
▁বি 432
▁ਹੈ 433
স্ 434
▁দে 435
स्त 436
ಂತ 437
োন 438
वर 439
ாக 440
▁लाग 441
▁कोन 442
ारी 443
दे 444
▁सर 445
రు 446
ारे 447
▁ರ 448
ಸ್ 449
▁अच्छ 450
▁മ 451
▁ആ 452
ച് 453
ிற 454
▁मिल 455
டு 456
▁இரு 457
▁लिए 458
गा 459
टर 460
▁ಒ 461
ట్ట 462
▁ਉ 463
▁ᱵ 464
▁ही 465
్చ 466
ছি 467
મા 468
▁तर 469
ಡಿ 470
▁উ 471
ारा 472
▁পা 473
ంత 474
▁बैं 475
▁സ 476
ரி 477
▁আমি 478
▁ஆ 479
പ്പ 480
▁जी 481
▁मन 482
▁ஒ 483
▁ᱦ 484
▁कौ 485
▁या 486
▁પ 487
ാണ 488
▁खाता 489
▁ಯ 490
िन 491
గు 492
▁पै 493
▁तु 494
▁बैंक 495
িব 496
िट 497
जी 498
णि 499
ड़ी 500
▁ऑ 501
▁त्या 502
చ్చ 503
ല്ല 504
কা 505
ूप 506
▁ਆ 507
द् 508
▁প্র 509
▁ഇ 510
▁रह 511
▁बे 512
ೆಯ 513
ल्या 514
▁कौन 515
ட்டு 516
▁ప్ర 517
जे 518
क्ष 519
ध्य 520
്യ 521
ड़ा 522
इन 523
ించ 524
▁ᱫ 525
য়া 526
▁ধ 527
ਾਰ 528
▁चाहि 529
टे 530
ाना 531
▁दु 532
▁ਲ 533
▁ও 534
డి 535
বে 536
ੂੰ 537
ंड 538
साठी 539
ିବ 540
ான் 541
పు 542
డా 543
ीन 544
▁सि 545
▁মা 546
▁ଦ 547
▁खेती 548
র্ 549
▁इस 550
▁છ 551
▁भा 552
▁रहा 553
ुर 554
▁आणि 555
िस 556
ாங்க 557
▁गे 558
লি 559
িয়ে 560
तना 561
पर 562
টো 563
াদ 564
సు 565
▁ਦੇ 566
ਿੱ 567
▁ત 568
್ಯಾ 569
▁ই 570
ిన 571
▁ने 572
ಂದು 573
ને 574
▁কৰ 575
▁ഒ 576
्रा 577
চ্ 578
तर 579
ूं 580
▁ᱥ 581
▁જ 582
▁किस 583
ള് 584
बर 585
తు 586
▁कैसे 587
हीं 588
▁कार 589
▁ତ 590
िका 591
▁লা 592
ಡ್ 593
▁আছে 594
ண் 595
ন্য 596
▁लोन 597
ೇಕ 598
ண்ட 599
ାଇ 600
▁ନ 601
्रे 602
दी 603
ಿನ 604
ాలు 605
ಿಸ 606
िंग 607
தி 608
▁अच्छा 609
క్క 610
াক 611
ष् 612
▁ଏ 613
ార్ 614
▁এই 615
ಮ್ 616
▁ଯ 617
▁করে 618
ৰু 619
नु 620
ంచ 621
▁कुछ 622
की 623
▁गा 624
ಟ್ 625
▁ᱢ 626
▁भे 627
ിക്ക 628
तो 629
ുന്ന 630
▁ꯃ 631
ாம் 632
ಿಯ 633
▁लोग 634
▁ಗ 635
▁સ 636
ਿਆ 637
वि 638
▁போ 639
ರೆ 640
▁योज 641
▁बो 642
▁না 643
▁છે 644
୍ର 645
▁పె 646
టి 647
▁ᱛ 648
াবে 649
▁म्ह 650
▁रहे 651
ତି 652
ాయి 653
ਦਾ 654
▁भार 655
▁সম 656
▁झ 657
ण्या 658
କୁ 659
जार 660
हरू 661
ਤੇ 662
ᱨᱮ 663
ट् 664
▁આ 665
योग 666
ುವ 667
▁ᱡ 668
▁दू 669
୍ୟ 670
▁ച 671
ाने 672
▁ᱠᱚ 673
▁बना 674
ું 675
െയ 676
ᱟᱜ 677
ക്ക് 678
▁उस 679
ଛି 680
্ৰ 681
్యా 682
▁ದ 683
ాలి 684
ଙ୍ 685
▁ई 686
ச்ச 687
વા 688
ார 689
▁शे 690
तिर 691
ক্ 692
▁ത 693
▁कर् 694
▁ಜ 695
▁ల 696
నే 697
ళ్ 698
▁ಮತ್ತ 699
ാണ് 700
த்து 701
ண்ண 702
िक् 703
▁ਕਰ 704
▁उत् 705
াত 706
▁ᱚ 707
▁ఒ 708
स्थ 709
▁କର 710
ನು 711
▁અ 712
▁मैं 713
▁यह 714
िर 715
▁ଅ 716
धा 717
▁दिखा 718
▁घर 719
▁টা 720
▁काम 721
ਦੇ 722
▁జ 723
▁ஒரு 724
तात 725
में 726
▁చె 727
ത്ത 728
త్త 729
ड़े 730
▁त्य 731
▁কা 732
▁వి 733
▁నా 734
▁એ 735
▁હ 736
▁ল 737
್ದ 738
वी 739
▁గ 740
▁ಬೆ 741
ంటే 742
▁देख 743
▁दो 744
ండి 745
ାନ 746
▁உ 747
వు 748
▁ਰ 749
▁ऋ 750
ार्ड 751
▁पू 752
నికి 753
ਾਲ 754
▁काय 755
▁পর 756
্ব 757
▁সেই 758
▁अब 759
▁ସେ 760
▁नहीं 761
▁നമ 762
ಷ್ಟ 763
న్ని 764
▁योजना 765
▁कइ 766
णा 767
নেক 768
▁వా 769
▁व्य 770
▁हर 771
▁ভাল 772
▁कम 773
ായി 774
▁ठ 775
ूल 776
রা 777
हो 778
▁চা 779
ିକ 780
డ్ 781
▁তো 782
ಾಗಿ 783
▁কোন 784
ज़ 785
्री 786
ध्ये 787
गी 788
▁कृ 789
▁ਕਿ 790
ੀਆ 791
്ര 792
று 793
ಂಗ 794
ಿಕ 795
▁ਚ 796
▁আপ 797
▁ছ 798
शी 799
प् 800
▁ऋण 801
ത്തി 802
ିଲ 803
▁నే 804
▁हुआ 805
ುತ್ತ 806
য়ে 807
▁বে 808
▁মানে 809
▁দেখ 810
▁পার 811
▁बढ़ 812
नला 813
▁हई 814
▁सरकार 815
তু 816
ಟ್ಟ 817
▁ਗ 818
റ്റ 819
னா 820
ಾಲ 821
ల్ల 822
▁আৰু 823
খন 824
वन 825
▁सी 826
বি 827
మి 828
కో 829
लर 830
▁पैसा 831
స్తు 832
ള്ള 833
▁लगा 834
ꯣꯏ 835
▁दिखाई 836
▁ਅਤੇ 837
ുക 838
गे 839
ोक 840
गर 841
▁ᱜ 842
▁कार्ड 843
ꯥꯏ 844
ற் 845
▁प्रकार 846
▁కా 847
েকে 848
णी 849
গে 850
▁दा 851
लब 852
দি 853
્ય 854
ଡ଼ 855
▁জন্য 856
ಾರ್ 857
▁खातिर 858
ம்ப 859
ꯁꯤ 860
▁सो 861
ിയ 862
▁कोई 863
ದೆ 864
ुक 865
▁बाद 866
▁নি 867
ાર 868
▁બ 869
▁पी 870
▁ਉਹ 871
▁ಉ 872
डी 873
ಾಯ 874
शन 875
▁बन 876
▁पो 877
ಬೇಕ 878
▁య 879
स्ट 880
▁बता 881
ച്ച 882
बे 883
▁ଗ 884
▁ఒక 885
▁ர 886
ஸ் 887
▁ꯍ 888
मि 889
ুর 890
▁म्हण 891
▁रही 892
▁లో 893
▁जान 894
ꯒꯤ 895
▁शक 896
ষ্ 897
ಳಿ 898
▁কে 899
▁ব্য 900
ूँ 901
श् 902
নি 903
▁ऑनला 904
▁चाहिँ 905
▁కూ 906
াকে 907
रो 908
▁থেকে 909
ാര 910
▁আর 911
▁மா 912
ടെ 913
ங்கள 914
मान 915
▁ᱠᱟ 916
▁ଭ 917
▁ता 918
ियां 919
ಗಳು 920
దు 921
ില 922
▁ಚ 923
గ్ 924
भा 925
ਿੱਚ 926
ద్ 927
ில 928
ైన 929
▁ಪ್ರ 930
▁होला 931
▁এব 932
▁তে 933
માં 934
▁कई 935
ണ്ട് 936
▁रो 937
ના 938
मध्ये 939
▁ਹੋ 940
▁ਨੂੰ 941
वार 942
▁मी 943
ର୍ 944
▁ਵਿੱਚ 945
▁ᱫᱚ 946
▁पानी 947
▁அப்ப 948
ಳ್ 949
▁మన 950
▁కొ 951
▁கொ 952
▁हइ 953
▁ᱞ 954
▁ਵੀ 955
▁দি 956
▁ಯಾವ 957
▁यहाँ 958
്മ 959
▁रे 960
ꯗꯨ 961
ৰা 962
ంలో 963
▁மு 964
ੀਂ 965
ന്ന് 966
িয়া 967
▁बीमा 968
ము 969
ాత 970
ಾದ 971
ੋਂ 972
▁ড 973
▁करा 974
▁क् 975
ಂಬ 976
▁अपन 977
▁ఫ 978
ுக்கு 979
गत 980
▁வி 981
▁அத 982
▁तऽ 983
दन 984
▁ठी 985
మ్ 986
▁ఉన్న 987
ക്കെ 988
▁করা 989
ంగా 990
▁गो 991
സ് 992
शा 993
▁ᱯ 994
ప్పు 995
ये 996
▁धान 997
চ্ছে 998
▁ଆମ 999
▁મ 1000
त्या 1001
ਸ਼ 1002
কার 1003
▁गु 1004
▁ठीक 1005
ಿಂದ 1006
িত 1007
▁नी 1008
▁पु 1009
ेक 1010
மா 1011
াদের 1012
▁वे 1013
సి 1014
▁ਮੈ 1015
▁ഉ 1016
▁அவ 1017
িনি 1018
▁अल 1019
ष्ट 1020
▁আমার 1021
▁அது 1022
लू 1023
▁টাকা 1024
▁ഒരു 1025
▁এবং 1026
ंत 1027
▁दिन 1028
भी 1029
ட் 1030
वल 1031
▁हमरा 1032
▁किसान 1033
▁ಏ 1034
গু 1035
▁प्रा 1036
▁समय 1037
▁जाला 1038
▁कइसे 1039
ళ్ళ 1040
ुप 1041
ᱟᱱ 1042
ിൽ 1043
▁ಹಾ 1044
▁பண்ண 1045
ার্ 1046
▁कलर 1047
ುದ 1048
ওয়া 1049
્ર 1050
ੀਆਂ 1051
లి 1052
▁চাষ 1053
▁मला 1054
▁செ 1055
▁ని 1056
টে 1057
▁తె 1058
্প 1059
हर 1060
▁जाता 1061
▁ᱨᱮ 1062
ంటి 1063
সে 1064
ഞ് 1065
▁ର 1066
▁कह 1067
▁उपयोग 1068
ಿಗೆ 1069
▁ਦੀ 1070
▁ఈ 1071
▁भारत 1072
आई 1073
▁ಒಂದು 1074
ାହ 1075
▁যায় 1076
রে 1077
না 1078
ঙ্ 1079
▁ಅದ 1080
द्ध 1081
्रो 1082
వి 1083
▁డ 1084
an 1085
▁हुए 1086
▁ऑनलाइन 1087
▁সব 1088
र्थ 1089
ാൻ 1090
▁अउ 1091
▁দু 1092
▁ꯂ 1093
ிர 1094
▁रख 1095
▁हि 1096
▁आद 1097
▁இருக்கு 1098
▁बै 1099
▁जमा 1100
▁होता 1101
▁कं 1102
ांग 1103
▁छो 1104
ங்கள் 1105
ಾರೆ 1106
मु 1107
▁जाइ 1108
తి 1109
ळे 1110
▁அந்த 1111
▁कोनो 1112
ന്നെ 1113
▁অনেক 1114
ങ്ക 1115
▁ಅವ 1116
▁ಆಗ 1117
ார் 1118
▁ਜਿ 1119
▁उन 1120
▁ହେ 1121
ಂಡ 1122
▁दी 1123
▁लेल 1124
▁মান 1125
▁होइ 1126
ுற 1127
न्न 1128
कि 1129
ಿದೆ 1130
▁ऊ 1131
তা 1132
ेर 1133
ᱟᱨ 1134
ಲಿ 1135
▁ಹೆ 1136
▁তার 1137
▁ব্যা 1138
▁कृष 1139
▁मै 1140
ందు 1141
▁সু 1142
▁মো 1143
ିବା 1144
▁अपने 1145
ಲೆ 1146
▁ବି 1147
सम 1148
ತಿ 1149
▁స్ 1150
ಕ್ಕೆ 1151
ᱼᱟ 1152
ുള്ള 1153
▁যা 1154
धी 1155
▁భ 1156
ंत्र 1157
▁నేను 1158
धार 1159
ूर 1160
ல்லா 1161
ುದು 1162
▁जि 1163
▁ಮತ್ತು 1164
▁కూడా 1165
▁పంట 1166
ಮ್ಮ 1167
▁दिख 1168
ਾਨ 1169
ଙ୍କ 1170
ᱮᱫ 1171
ടു 1172
न्छ 1173
ிரு 1174
బ్ 1175
మా 1176
▁लि 1177
लि 1178
झे 1179
ంట్ 1180
కోవ 1181
▁ᱪ 1182
▁सिं 1183
ਿੰ 1184
▁ଜ 1185
ട്ട് 1186
ಾನ 1187
క్కు 1188
▁మా 1189
▁ಕೊ 1190
▁ಭ 1191
▁ಈ 1192
▁था 1193
डे 1194
ಣ್ 1195
ಲು 1196
▁ఉంట 1197
▁খু 1198
▁ಬೆಳ 1199
▁মই 1200
ভি 1201
▁गर् 1202
▁डे 1203
▁করতে 1204
ᱟᱦ 1205
ंदा 1206
▁मत 1207
▁ꯑꯩ 1208
▁वर् 1209
▁ଲ 1210
ால 1211
▁ꯑꯗꯨ 1212
থা 1213
▁ꯇ 1214
ᱤᱧ 1215
▁વ 1216
▁ಅಂತ 1217
▁तक 1218
▁ਦਾ 1219
ప్ప 1220
▁झा 1221
জন 1222
▁వే 1223
▁हुई 1224
▁ર 1225
▁खेत 1226
▁କି 1227
োৱ 1228
ய் 1229
డం 1230
▁डा 1231
▁తీ 1232
▁পে 1233
बी 1234
ள்ள 1235
▁पइ 1236
▁मह 1237
टो 1238
ೋಗ 1239
ற்ற 1240
▁ꯀ 1241
ம்ம 1242
ওঁ 1243
▁होथे 1244
▁ঘ 1245
▁भु 1246
▁पड़ 1247
வி 1248
▁आर 1249
োঁ 1250
▁ಫ 1251
लै 1252
ಿದ್ದ 1253
▁होई 1254
తే 1255
ની 1256
▁अध 1257
তো 1258
▁वाला 1259
▁ভালো 1260
▁आज 1261
ன்னா 1262
ਦੀ 1263
ੱਕ 1264
▁पइसा 1265
▁ਹਾਂ 1266
▁खो 1267
▁ట 1268
▁നമ്മ 1269
▁ᱱ 1270
ాలా 1271
মান 1272
ஞ்ச 1273
ନ୍ତି 1274
▁पनि 1275
▁घे 1276
▁सर् 1277
षा 1278
োগ 1279
▁आहेत 1280
्यादा 1281
▁व्यव 1282
बै 1283
ంచి 1284
▁आस 1285
ਣਾ 1286
▁গা 1287
ങ്ങള 1288
▁ವಿ 1289
ᱠᱟ 1290
्व 1291
▁जिस 1292
▁सबसे 1293
▁उत्पा 1294
▁કર 1295
▁आव 1296
▁சொ 1297
ാന 1298
▁भर 1299
्रेड 1300
్వ 1301
▁ঠ 1302
▁బా 1303
▁चाही 1304
▁लोक 1305
▁मौ 1306
ᱚᱱ 1307
इल 1308
▁पौ 1309
▁किती 1310
ুল 1311
▁ನಿ 1312
▁చేయ 1313
▁रूप 1314
▁সা 1315
মে 1316
हन 1317
దా 1318
▁लाभ 1319
মা 1320
ష్ 1321
▁ను 1322
▁ਫ 1323
▁మీ 1324
க் 1325
▁राज 1326
▁कोण 1327
▁सभ 1328
कान 1329
▁चल 1330
श्य 1331
ছু 1332
▁তা 1333
▁चार 1334
പ്പോ 1335
▁ଚ 1336
ਹੁ 1337
▁सकता 1338
੍ਰ 1339
▁फाय 1340
▁व्या 1341
त्य 1342
কম 1343
ुल 1344
▁मोबा 1345
▁टा 1346
णे 1347
▁ট 1348
▁मतलब 1349
▁ਖ 1350
▁ଦେ 1351
▁बँ 1352
ান্ 1353
▁பார 1354
▁ᱟᱨ 1355
ಣ್ಣ 1356
মি 1357
▁पं 1358
▁डि 1359
▁बार 1360
▁ಹೇ 1361
ಪ್ 1362
ियै 1363
सन 1364
ंदी 1365
ভাবে 1366
तीय 1367
ದಲ್ಲಿ 1368
लाई 1369
ான 1370
ধ্য 1371
छि 1372
▁ಎಷ್ಟ 1373
▁ನಾ 1374
▁हां 1375
্ষ 1376
▁ఎంత 1377
ন্ন 1378
स्था 1379
▁ര 1380
▁ଆଉ 1381
▁ఎలా 1382
ৰি 1383
▁सकते 1384
▁शा 1385
▁जाय 1386
▁ᱵᱟ 1387
ನೆ 1388
▁सारे 1389
ப்போ 1390
லாம் 1391
ಸ್ತ 1392
ट्टी 1393
▁இந்த 1394
లను 1395
▁ᱦᱚ 1396
▁ചെയ 1397
టు 1398
ట్టు 1399
ন্ট 1400
▁ची 1401
ᱮᱱ 1402
▁केतना 1403
▁तरी 1404
▁वो 1405
்த்த 1406
▁ನೀ 1407
ಬಹ 1408
▁లే 1409
ಬೇಕು 1410
▁किया 1411
▁खाद 1412
▁మొ 1413
▁কিছু 1414
ꯌꯥ 1415
▁അവ 1416
▁ਆਪ 1417
▁कर्ज 1418
▁ਇਹ 1419
డానికి 1420
▁মানু 1421
▁स्थ 1422
್ರೆ 1423
साय 1424
▁ಬ್ಯಾ 1425
▁কৰি 1426
▁হবে 1427
▁അത 1428
▁थो 1429
খানে 1430
बो 1431
੍ਹ 1432
ின் 1433
▁मुझे 1434
ठा 1435
్యాం 1436
▁अगर 1437
▁आम 1438
ారా 1439
▁গু 1440
▁पास 1441
क्र 1442
ত্র 1443
క్కువ 1444
নের 1445
▁आय 1446
యి 1447
ವು 1448
तील 1449
াজ 1450
ಚ್ 1451
▁মে 1452
▁पह 1453
ସ୍ 1454
ियो 1455
▁कंप 1456
▁कितना 1457
ंतर 1458
शि 1459
चो 1460
▁करना 1461
ായ 1462
्रेडिट 1463
▁मान 1464
▁ಸ್ 1465
▁উপ 1466
लं 1467
▁కో 1468
▁सके 1469
▁একটা 1470
ਜ਼ 1471
െങ്ക 1472
▁क्रेडिट 1473
ಬ್ 1474
▁ᱚᱱᱟ 1475
लन 1476
বো 1477
ैत 1478
शे 1479
▁ਸੀ 1480
ேன் 1481
ವಾ 1482
हार 1483
▁गया 1484
▁कित 1485
▁परि 1486
▁வே 1487
यर 1488
▁कृषि 1489
രി 1490
লৈ 1491
▁പി 1492
▁हाँ 1493
▁ᱜᱮ 1494
गो 1495
▁సం 1496
ുമ 1497
ವೆ 1498
ోగ 1499
ंट 1500
బ్బ 1501
▁जरू 1502
▁ব্যব 1503
▁ट्र 1504
▁நம்ம 1505
▁ꯄ 1506
▁লো 1507
ড়ি 1508
ಸಿ 1509
▁नाही 1510
▁ಶ 1511
▁ಇದ 1512
ন্তু 1513
▁होते 1514
सर 1515
सँ 1516
▁ਤੇ 1517
ମାନ 1518
▁చాలా 1519
पे 1520
▁पहि 1521
▁थी 1522
বা 1523
▁रि 1524
দ্ 1525
▁क्ष 1526
ण्यासाठी 1527
పి 1528
▁ನಾವ 1529
▁बच 1530
▁सब् 1531
▁करने 1532
▁तीन 1533
হে 1534
▁महि 1535
▁आदमी 1536
▁नहि 1537
▁ମୁ 1538
య్య 1539
▁बच् 1540
ಗಳನ್ನು 1541
▁ਨਾਲ 1542
দের 1543
▁লাগ 1544
▁पेड़ 1545
▁പറ 1546
ूपी 1547
▁బ్యాం 1548
ꯗꯤ 1549
್ರಿ 1550
▁ओह् 1551
▁यूपी 1552
▁ਹਨ 1553
▁माझ 1554
▁এটা 1555
▁ଖ 1556
▁হ্যা 1557
ᱭᱟ 1558
्यो 1559
▁రా 1560
▁কত 1561
న్నా 1562
ஃப 1563
ರ್ತ 1564
▁મા 1565
ंध 1566
▁স্ 1567
कारी 1568
▁कै 1569
▁ஏ 1570
तै 1571
इट 1572
▁अलग 1573
▁अधिक 1574
▁हूँ 1575
▁প্ৰ 1576
तु 1577
सि 1578
▁बड़ा 1579
ਰੀ 1580
एम 1581
▁ಟ 1582
▁वित् 1583
▁নে 1584
டிய 1585
्हा 1586
▁जाए 1587
ন্দ 1588
चं 1589
▁বল 1590
ଟା 1591
ൊക്കെ 1592
▁साम 1593
▁साथ 1594
ేశ 1595
হু 1596
▁मां 1597
ᱤᱫ 1598
ହୁ 1599
▁హ 1600
▁અને 1601
పో 1602
▁এর 1603
्यू 1604
▁रुप 1605
▁ਜਾਂ 1606
▁ಸಾಲ 1607
▁যদি 1608
▁থাক 1609
रि 1610
▁நான் 1611
▁अछि 1612
न्द 1613
▁ਬਹੁ 1614
▁होती 1615
▁करता 1616
ವಿ 1617
ದ್ 1618
▁चि 1619
திரி 1620
लक 1621
▁தான் 1622
▁શ 1623
ோம் 1624
▁ਮੈਂ 1625
▁ಬ್ಯಾಂ 1626
ప్పుడు 1627
▁వె 1628
▁হ্যাঁ 1629
वेश 1630
▁ਬਹੁਤ 1631
पी 1632
▁લ 1633
രുന്ന 1634
కా 1635
▁কিন্তু 1636
▁ଯେ 1637
▁तरह 1638
ुन 1639
वय 1640
ਾਈ 1641
ਿਲ 1642
▁ഓ 1643
ଥା 1644
▁पैसे 1645
▁देश 1646
ହି 1647
லை 1648
ਤਾ 1649
▁ഞ 1650
ꯅꯤ 1651
ಗೊ 1652
▁लगे 1653
▁रंग 1654
▁तुम् 1655
▁সময় 1656
▁കു 1657
▁ಹೊ 1658
▁হচ্ছে 1659
▁ধর 1660
▁कॉ 1661
▁ட 1662
गतान 1663
▁म्हणजे 1664
చ్చు 1665
ಿತ 1666
నా 1667
▁हमर 1668
▁আমরা 1669
▁पढ़ 1670
ଥିଲ 1671
▁പ്ര 1672
▁भुगतान 1673
வு 1674
डा 1675
▁ਨੇ 1676
▁होय 1677
चाई 1678
▁হয়ে 1679
मेंट 1680
▁पि 1681
জি 1682
▁ન 1683
▁একটি 1684
▁द्व 1685
ಕೊ 1686
▁बने 1687
ഞ്ഞ 1688
ిక 1689
▁ബ 1690
▁ਹੁ 1691
▁करते 1692
▁ढ 1693
▁अपना 1694
माज 1695
जन 1696
▁వ్య 1697
▁a 1698
यो 1699
▁चाहिए 1700
▁बीज 1701
▁ᱟᱹ 1702
▁खरी 1703
▁जग 1704
▁என்ன 1705
ਰਾ 1706
ळा 1707
▁सकत 1708
▁ती 1709
ᱛᱮ 1710
▁ಲ 1711
▁ଟ 1712
ক্ষ 1713
क्त 1714
ুন 1715
करा 1716
▁ति 1717
▁অন 1718
▁जाथे 1719
▁કે 1720
▁తీసు 1721
க்கிற 1722
द्य 1723
ᱱᱟᱜ 1724
▁ॾ 1725
▁दर 1726
▁किं 1727
स्य 1728
▁ಖ 1729
▁कत 1730
▁पण 1731
▁जै 1732
ିନ 1733
তিয়া 1734
ତେ 1735
कृ 1736
▁খুব 1737
लें 1738
▁আমাদের 1739
ர்க 1740
▁அப்படி 1741
ꯔꯤ 1742
▁जाते 1743
▁छी 1744
ମ୍ 1745
▁సా 1746
టీ 1747
▁खु 1748
▁टे 1749
ಡೆ 1750
ல்லாம் 1751
▁ꯁ 1752
▁d 1753
ങ്ങന 1754
वत 1755
▁ಕೆ 1756
▁సే 1757
िके 1758
हिं 1759
▁ਭ 1760
▁ପ୍ର 1761
▁ঠিক 1762
त्रा 1763
▁ग्रा 1764
▁कीट 1765
▁ਹੀ 1766
ईल 1767
▁ಅಂದ 1768
ાં 1769
ಂಗ್ 1770
▁कारण 1771
▁দিয়ে 1772
ಕೆ 1773
యు 1774
▁हजार 1775
▁अनु 1776
▁आवे 1777
▁നി 1778
व्ह 1779
▁పొ 1780
▁ꯆ 1781
फी 1782
ᱤᱱ 1783
শি 1784
▁फिर 1785
▁मौसम 1786
▁बिल 1787
▁आसा 1788
्यां 1789
ᱣᱟ 1790
▁శ 1791
ਵੇ 1792
▁ਤੋਂ 1793
▁पता 1794
ାଇଁ 1795
ড়া 1796
ನಿ 1797
ಚ್ಚ 1798
▁అంటే 1799
▁কোনো 1800
▁మరి 1801
মন 1802
▁ತಿ 1803
నీ 1804
ोर 1805
ரிய 1806
▁मश 1807
▁ಸಾ 1808
লাই 1809
▁भेज 1810
▁ਕੀ 1811
ಬ್ಬ 1812
▁ਇੱਕ 1813
ாய 1814
ത്ര 1815
్రా 1816
ੱਲ 1817
ବୁ 1818
ിക 1819
▁कंपनी 1820
▁అనే 1821
ंदर 1822
▁ऐं 1823
▁ಎಲ್ಲ 1824
ങ്ങൾ 1825
▁ତା 1826
ുടെ 1827
ాల్ 1828
రా 1829
ᱚᱜ 1830
फ़ 1831
▁फूल 1832
▁नाम 1833
▁রা 1834
ಂಟ 1835
▁ज्यादा 1836
▁मोबाइल 1837
▁கு 1838
तं 1839
▁काग 1840
ब् 1841
▁ಕಾ 1842
▁ꯐ 1843
▁त्यो 1844
▁गै 1845
ല്ലാ 1846
▁பே 1847
▁மே 1848
▁दोन 1849
ଲେ 1850
ਾਹ 1851
▁പോ 1852
▁ನಾವು 1853
తో 1854
ळी 1855
▁దా 1856
లకు 1857
▁অঁ 1858
▁বু 1859
ಗ್ 1860
▁सुर 1861
▁ஓ 1862
▁द्वारा 1863
▁খে 1864
▁ఖ 1865
പ്പോൾ 1866
▁ము 1867
ತೆ 1868
ிக 1869
▁ਤਾਂ 1870
ൻ്റ 1871
▁बाजार 1872
ச்சு 1873
▁सौ 1874
▁କରି 1875
▁हुन्छ 1876
▁દ 1877
ன்ற 1878
ᱟᱭ 1879
प्त 1880
ಡು 1881
▁तुम 1882
ന്ത 1883
ண்டு 1884
వా 1885
चार 1886
जर 1887
▁ପା 1888
ବା 1889
થી 1890
▁हय 1891
त्व 1892
ନ୍ତ 1893
ज् 1894
য়ার 1895
▁जर 1896
▁থাকে 1897
ിച്ച 1898
▁काही 1899
▁बु 1900
জে 1901
ಳ್ಳ 1902
ਸੀਂ 1903
▁பெ 1904
धान 1905
्याज 1906
▁यहां 1907
▁जादा 1908
ద్ద 1909
গুলো 1910
पास 1911
▁వచ్చ 1912
ವನ್ನು 1913
▁ମୁଁ 1914
▁ਇਸ 1915
వస 1916
शु 1917
▁পরি 1918
▁मिट्टी 1919
ବେ 1920
▁ಬಿ 1921
▁करू 1922
▁আমাৰ 1923
▁निवेश 1924
▁घा 1925
▁ఎక్కువ 1926
ল্ 1927
▁ਤੁ 1928
ಮಾ 1929
▁ਜਿਹ 1930
ുണ്ട് 1931
▁वापर 1932
ানো 1933
▁ꯅ 1934
▁చూ 1935
▁লাগে 1936
▁आओ 1937
▁ଶ 1938
ਨਾਂ 1939
▁दुकान 1940
▁നമു 1941
▁பார்த்த 1942
ङ् 1943
▁রকম 1944
▁बारे 1945
▁വി 1946
ँच 1947
▁കാര 1948
▁ᱥᱮ 1949
▁நீ 1950
్రి 1951
ింగ్ 1952
▁ఏమి 1953
on 1954
▁वह 1955
▁t 1956
▁ମୋ 1957
▁क्षे 1958
ండు 1959
▁b 1960
క్కడ 1961
▁ಸಿ 1962
ৰে 1963
▁जानकारी 1964
▁গে 1965
ণে 1966
மே 1967
▁ગ 1968
మైన 1969
ಕ್ಷ 1970
ింది 1971
শে 1972
ରି 1973
▁என 1974
▁ऊपर 1975
▁તે 1976
୍ଟ 1977
▁ᱮ 1978
ᱠᱚ 1979
▁s 1980
மாக 1981
क्टर 1982
▁ॿ 1983
▁ज़ 1984
▁यूपीआई 1985
▁आपल्या 1986
▁मार् 1987
▁ᱠᱷ 1988
ৰ্ 1989
▁करें 1990
▁பி 1991
वाई 1992
▁சொல்ல 1993
लय 1994
▁ᱠᱟᱱᱟ 1995
क्षा 1996
▁ಬೇ 1997
▁ತು 1998
க்கும் 1999
▁ਕੇ 2000
▁ਨਹ 2001
▁কী 2002
▁ಮು 2003
▁आनी 2004
ೋದು 2005
▁मशीन 2006
▁प्रति 2007
▁हवे 2008
करी 2009
▁छे 2010
▁बात 2011
ान् 2012
▁হৈ 2013
▁ਜਾ 2014
▁उत्पादन 2015
হা 2016
னால் 2017
▁त्यां 2018
▁તો 2019
ன்னு 2020
▁ਸ਼ 2021
▁आओर 2022
▁இப்போ 2023
ತ್ 2024
ೇಶ 2025
दि 2026
▁केँ 2027
▁আহ 2028
▁இது 2029
▁বিভি 2030
ᱰᱤ 2031
▁ਕੋ 2032
ছা 2033
ষ্ট 2034
দ্ধ 2035
ਤੀ 2036
▁பா 2037
▁কো 2038
▁होखे 2039
ल्ड 2040
ᱫᱚ 2041
र्स 2042
▁खूप 2043
▁इं 2044
ാല 2045
ꯁꯨ 2046
▁ಎಷ್ಟು 2047
र्ड 2048
ಂಟ್ 2049
ರುವ 2050
▁বহু 2051
▁सू 2052
▁अस् 2053
▁एव 2054
ోజ 2055
క్ష 2056
ियों 2057
▁शेती 2058
તા 2059
▁थे 2060
▁सेवा 2061
सो 2062
▁পাৰ 2063
▁ஃப 2064
ठे 2065
▁ನೋ 2066
स्ते 2067
▁जब 2068
करण 2069
ꯈꯣꯏ 2070
ছিল 2071
ணும் 2072
▁नै 2073
വി 2074
क्ट 2075
▁କେ 2076
ঞ্ 2077
▁सिंचाई 2078
നി 2079
तेक 2080
▁आई 2081
▁ꯊ 2082
ష్ట 2083
▁ചെയ്യ 2084
म्रो 2085
र्ण 2086
▁এখন 2087
▁आता 2088
बिट 2089
த்தில் 2090
▁বিভিন্ন 2091
▁గు 2092
▁ಮೇ 2093
था 2094
▁हामी 2095
ொம்ப 2096
▁ਨਹੀਂ 2097
▁மாதிரி 2098
▁गाय 2099
▁ਸਕ 2100
▁सां 2101
পি 2102
ൻ്റെ 2103
▁उन् 2104
धि 2105
▁ਵਿ 2106
दान 2107
ಾಗ್ 2108
ிட்ட 2109
▁ꯍꯥꯏ 2110
▁మరియు 2111
ாவ 2112
ᱟᱸ 2113
▁पशु 2114
▁जेह् 2115
▁ਲਈ 2116
खर 2117
कां 2118
ులు 2119
ଲି 2120
గి 2121
▁नइ 2122
▁ನಾನು 2123
ழு 2124
▁साल 2125
సే 2126
▁ꯌꯥ 2127
▁நிற 2128
▁मिळ 2129
▁ரொம்ப 2130
కే 2131
▁ਜੀ 2132
टि 2133
ंक 2134
રા 2135
▁लगी 2136
ᱟᱹᱜ 2137
▁मेरे 2138
ல்லை 2139
ವಾಗಿ 2140
ᱩᱜ 2141
ஸ்ட 2142
▁डेबिट 2143
తా 2144
ച്ച് 2145
▁असां 2146
मीन 2147
▁आवेदन 2148
▁बचत 2149
ᱟᱲ 2150
ঁচ 2151
▁फायदा 2152
▁टी 2153
▁ᱢᱮ 2154
▁गेह 2155
ারা 2156
▁धन 2157
রি 2158
▁ବହୁ 2159
ર્ 2160
▁आउ 2161
▁ଫ 2162
स्ता 2163
▁जु 2164
क्ति 2165
ಿರ 2166
କ୍ 2167
▁आहि 2168
ంప 2169
ளை 2170
▁ 2171
ा 2172
े 2173
क 2174
र 2175
् 2176
ह 2177
त 2178
न 2179
स 2180
ी 2181
ल 2182
म 2183
ि 2184
া 2185
் 2186
ं 2187
ो 2188
य 2189
प 2190
ে 2191
ब 2192
್ 2193
్ 2194
ज 2195
व 2196
് 2197
ি 2198
द 2199
ै 2200
ক 2201
র 2202
ి 2203
ా 2204
ు 2205
ग 2206
ु 2207
ন 2208
্ 2209
ு 2210
க 2211
च 2212
న 2213
ಿ 2214
য 2215
ల 2216
ం 2217
ट 2218
ব 2219
క 2220
ಾ 2221
आ 2222
த 2223
ర 2224
ರ 2225
ত 2226
ख 2227
ল 2228
ು 2229
ி 2230
ম 2231
ड 2232
अ 2233
ನ 2234
ದ 2235
ू 2236
ए 2237
ೆ 2238
ா 2239
ತ 2240
ப 2241
ಕ 2242
ക 2243
ம 2244
ᱟ 2245
ட 2246
इ 2247
भ 2248
স 2249
ਾ 2250
প 2251
ప 2252
త 2253
় 2254
ന 2255
ി 2256
ো 2257
ಗ 2258
श 2259
ା 2260
ಲ 2261
ர 2262
ట 2263
వ 2264
ି 2265
ু 2266
छ 2267
ৰ 2268
ई 2269
ण 2270
స 2271
ే 2272
ல 2273
ു 2274
ট 2275
ద 2276
ன 2277
మ 2278
़ 2279
డ 2280
হ 2281
வ 2282
আ 2283
দ 2284
ವ 2285
ध 2286
ಂ 2287
ಸ 2288
उ 2289
చ 2290
फ 2291
ಮ 2292
ത 2293
थ 2294
య 2295
ର 2296
୍ 2297
ই 2298
ാ 2299
ੀ 2300
ਹ 2301
େ 2302
ಯ 2303
ో 2304
ੇ 2305
ട 2306
ಬ 2307
ந 2308
ँ 2309
ছ 2310
ਰ 2311
ા 2312
గ 2313
ಡ 2314
গ 2315
କ 2316
জ 2317
ᱚ 2318
യ 2319
ச 2320
പ 2321
এ 2322
ਕ 2323
െ 2324
ಳ 2325
ᱮ 2326
ਸ 2327
ਦ 2328
ਿ 2329
ര 2330
ய 2331
ਂ 2332
ె 2333
চ 2334
ਨ 2335
ે 2336
ಟ 2337
ಹ 2338
ை 2339
ല 2340
ற 2341
ೇ 2342
ବ 2343
ष 2344
ள 2345
খ 2346
ీ 2347
ठ 2348
ਤ 2349
అ 2350
മ 2351
ୁ 2352
ନ 2353
அ 2354
ᱱ 2355
ം 2356
ே 2357
ಪ 2358
വ 2359
ਲ 2360
শ 2361
ર 2362
ମ 2363
బ 2364
ତ 2365
റ 2366
ಅ 2367
ங 2368
ভ 2369
ᱠ 2370
ौ 2371
ண 2372
ସ 2373
घ 2374
ਜ 2375
ണ 2376
இ 2377
ਵ 2378
ড 2379
ન 2380
ও 2381
ᱤ 2382
ꯤ 2383
ੱ 2384
ী 2385
ோ 2386
ପ 2387
ହ 2388
থ 2389
ओ 2390
ᱜ 2391
ങ 2392
औ 2393
ೊ 2394
ള 2395
ೋ 2396
ੰ 2397
অ 2398
ી 2399
ষ 2400
ধ 2401
ੋ 2402
ਮ 2403
ਆ 2404
ᱨ 2405
ച 2406
ढ 2407
ଲ 2408
ఎ 2409
મ 2410
ਪ 2411
ક 2412
ോ 2413
ꯥ 2414
ঁ 2415
സ 2416
ੈ 2417
્ 2418
ळ 2419
ూ 2420
ો 2421
അ 2422
ᱫ 2423
ત 2424
எ 2425
ெ 2426
a 2427
ં 2428
ಇ 2429
ొ 2430
વ 2431
ଆ 2432
జ 2433
ਬ 2434
ੁ 2435
ఉ 2436
झ 2437
ಣ 2438
ଇ 2439
ꯑ 2440
ై 2441
ᱢ 2442
ꯗ 2443
ᱛ 2444
ೂ 2445
ᱦ 2446
ਗ 2447
ꯅ 2448
ೀ 2449
ொ 2450
ᱩ 2451
ণ 2452
উ 2453
ॉ 2454
ᱵ 2455
ಆ 2456
ং 2457
േ 2458
ফ 2459
ಎ 2460
ꯁ 2461
ᱭ 2462
ಜ 2463
ਚ 2464
ᱞ 2465
ఇ 2466
ଦ 2467
ಷ 2468
ृ 2469
ᱥ 2470
પ 2471
ੂ 2472
ꯨ 2473
ꯣ 2474
ਅ 2475
e 2476
ᱹ 2477
સ 2478
ಚ 2479
ଟ 2480
ৈ 2481
ꯏ 2482
ୋ 2483
ꯕ 2484
n 2485
ꯔ 2486
਼ 2487
ਇ 2488
ਣ 2489
ਉ 2490
ఆ 2491
ય 2492
o 2493
ଗ 2494
ళ 2495
i 2496
ऐ 2497
ુ 2498
എ 2499
ᱡ 2500
ऽ 2501
જ 2502
ଛ 2503
ఏ 2504
ꯦ 2505
ꯃ 2506
ଁ 2507
ᱷ 2508
લ 2509
ଣ 2510
ష 2511
ଏ 2512
ৱ 2513
ऊ 2514
ధ 2515
ୟ 2516
ଉ 2517
ൽ 2518
ꯒ 2519
ൊ 2520
ஸ 2521
હ 2522
ः 2523
ீ 2524
ਟ 2525
ൾ 2526
ଯ 2527
ூ 2528
ଜ 2529
ആ 2530
ൻ 2531
ಒ 2532
ഞ 2533
ଥ 2534
శ 2535
ஆ 2536
ꯇ 2537
ಶ 2538
ழ 2539
ஒ 2540
ऑ 2541
િ 2542
છ 2543
ೈ 2544
భ 2545
ꯝ 2546
ഇ 2547
ঠ 2548
ਈ 2549
ଡ 2550
ਡ 2551
ᱸ 2552
એ 2553
t 2554
ଅ 2555
ਖ 2556
ർ 2557
ఫ 2558
બ 2559
ഒ 2560
ଭ 2561
r 2562
ટ 2563
ꯟ 2564
హ 2565
ൂ 2566
ᱯ 2567
ᱧ 2568
ꯩ 2569
g 2570
ଚ 2571
ꯂ 2572
ణ 2573
ീ 2574
ꯛ 2575
આ 2576
ଶ 2577
ॅ 2578
ꯡ 2579
ણ 2580
ಧ 2581
ಭ 2582
ꯍ 2583
੍ 2584
ঙ 2585
ଖ 2586
ଳ 2587
ગ 2588
ଙ 2589
ᱴ 2590
ഷ 2591
અ 2592
଼ 2593
ఒ 2594
k 2595
ᱪ 2596
ꯀ 2597
உ 2598
ᱣ 2599
ऋ 2600
ᱲ 2601
ଷ 2602
ੜ 2603
દ 2604
ꯄ 2605
ಥ 2606
ಫ 2607
ୀ 2608
ദ 2609
ଧ 2610
થ 2611
s 2612
શ 2613
ূ 2614
ৃ 2615
ഴ 2616
ਫ 2617
ꯈ 2618
ಉ 2619
l 2620
ꯌ 2621
ঘ 2622
ശ 2623
d 2624
h 2625
ᱰ 2626
u 2627
ᱼ 2628
థ 2629
ડ 2630
ਧ 2631
ഗ 2632
ಖ 2633
ഉ 2634
ಏ 2635
ఈ 2636
ബ 2637
ਭ 2638
ॾ 2639
ఖ 2640
ധ 2641
ધ 2642
ഡ 2643
b 2644
ଠ 2645
ജ 2646
ꯠ 2647
ஞ 2648
ಈ 2649
ᱳ 2650
ஃ 2651
ਥ 2652
ञ 2653
m 2654
ஜ 2655
ङ 2656
꯭ 2657
ꯆ 2658
ꯐ 2659
ચ 2660
ઈ 2661
ഹ 2662
ખ 2663
ᱝ 2664
ꯖ 2665
c 2666
ஷ 2667
ೌ 2668
p 2669
ꯧ 2670
ഭ 2671
y 2672
ꯊ 2673
ஏ 2674
ౌ 2675
ೃ 2676
ঞ 2677
ଫ 2678
ਏ 2679
ꯜ 2680
ഫ 2681
ഓ 2682
ળ 2683
ૂ 2684
ੌ 2685
ऱ 2686
ଂ 2687
ଞ 2688
ൈ 2689
ਛ 2690
ભ 2691
ஓ 2692
ৌ 2693
ᱽ 2694
ꯉ 2695
ਘ 2696
ಐ 2697
ॿ 2698
ఐ 2699
ਠ 2700
ৎ 2701
ઓ 2702
ꯎ 2703
ફ 2704
ঝ 2705
ஹ 2706
ృ 2707
ഥ 2708
ॻ 2709
ୂ 2710
ਓ 2711
ଓ 2712
ఓ 2713
ଘ 2714
ഏ 2715
ঋ 2716
ꯪ 2717
ਯ 2718
ঢ 2719
ഈ 2720
ꯋ 2721
ୱ 2722
ઉ 2723
| 2724
ષ 2725
ਐ 2726
j 2727
ଢ 2728
ୃ 2729
ઇ 2730
ઘ 2731
ൃ 2732
ಓ 2733
ਝ 2734
ஐ 2735
ꯞ 2736
ஊ 2737
w 2738
f 2739
ൺ 2740
· 2741
_ 2742
ಞ 2743
ಠ 2744
ਊ 2745
ॼ 2746
ਔ 2747
ഖ 2748
ഠ 2749
ఋ 2750
ଝ 2751
ಘ 2752
ઝ 2753
ઠ 2754
ᱬ 2755
ಛ 2756
ୌ 2757
ਢ 2758
ൗ 2759
ᱶ 2760
v 2761
ಊ 2762
ఊ 2763
ॲ 2764
ఛ 2765
ꯚ 2766
ஈ 2767
ഘ 2768
ૃ 2769
ఘ 2770
ଵ 2771
॒ 2772
ഐ 2773
ௌ 2774
ঐ 2775
ૈ 2776
ಔ 2777
ૌ 2778
ఠ 2779
ଃ 2780
ऍ 2781
ઢ 2782
ୈ 2783
ঃ 2784
॑ 2785
’ 2786
ಋ 2787
ᱺ 2788
x 2789
ଈ 2790
ঊ 2791
‍ 2792
ൌ 2793
~ 2794
ಝ 2795
ఞ 2796
ᱻ 2797
ଋ 2798
ઊ 2799
ഛ 2800
ঈ 2801
ঔ 2802
z 2803
ఢ 2804
ಢ 2805
S 2806
C 2807
ૅ 2808
ಃ 2809
ü 2810
ଔ 2811
ૉ 2812
I 2813
ઞ 2814
ഊ 2815
T 2816
P 2817
ॐ 2818
B 2819
ఔ 2820
M 2821
A 2822
q 2823
ی 2824
ઃ 2825
ഔ 2826
D 2827
ھ 2828
ہ 2829
F 2830
ت 2831
H 2832
ِ 2833
O 2834
ॠ 2835
ʼ 2836
ઑ 2837
ꯙ 2838
ا 2839
G 2840
E 2841
ఱ 2842
ن 2843
ک 2844
N 2845
V 2846
৷ 2847
L 2848
چ 2849
\ 2850
R 2851
] 2852
> 2853
ઋ 2854
ഃ 2855
ٕ 2856
ر 2857
/ 2858
ଐ 2859
ః 2860
ഢ 2861
ُ 2862
و 2863
ઍ 2864
ઔ 2865
ل 2866
س 2867
ب 2868
ઐ 2869
ٚ 2870
಼ 2871
ೕ 2872
م 2873
W 2874
U 2875
K 2876
ٹ 2877
J 2878
ఝ 2879
گ 2880
ٮ 2881
۪ 2882
پ 2883
ଊ 2884
ۍ 2885
ॄ 2886
ٲ 2887
ٛ 2888
ꯘ 2889
ॆ 2890
ز 2891
َ 2892
ഋ 2893
ऩ 2894
– 2895
د 2896
ಽ 2897
Y 2898
୘ 2899
ٔ 2900
ఙ 2901
X 2902
ف 2903
— 2904
ڈ 2905
ꯢ 2906
ਞ 2907
ৠ 2908
ஔ 2909
ش 2910
ੳ 2911
઼ 2912
` 2913
أ 2914
ٗ 2915
ڑ 2916
ٖ 2917
ઁ 2918
ॊ 2919
ۄ 2920
Q 2921
॥ 2922
ꯓ 2923
ے 2924
ੲ 2925
ஶ 2926
ج 2927
ಙ 2928
ऎ 2929
ఁ 2930
ഝ 2931
ୖ 2932
ഌ 2933
آ 2934
ऴ 2935
* 2936
õ 2937
Z 2938
॰ 2939
ୠ 2940
. 2941
ೖ 2942
ਁ 2943
[ 2944
ژ 2945
ق 2946
ୄ 2947
ਙ 2948
ୢ 2949
ಱ 2950
& 2951
= 2952
ঽ 2953
¬ 2954
ॢ 2955
ৄ 2956
ઙ 2957
ೞ 2958
ۭ 2959
● 2960
ؤ 2961
ص 2962
۔ 2963
ऌ 2964
ॹ 2965
ā 2966
خ 2967
॔ 2968
୲ 2969
° 2970
̥ 2971
ط 2972
ٟ 2973
ۆ 2974
ऒ 2975
ॡ 2976
ౖ 2977
ೠ 2978
ḍ 2979
′ 2980
í 2981
ē 2982
ؠ 2983
غ 2984
ۂ 2985
ऺ 2986
ॕ 2987
৻ 2988
ૢ 2989
ൡ 2990
‚ 2991
+ 2992
á 2993
ú 2994
Ā 2995
ĺ 2996
ō 2997
ح 2998
ظ 2999
<blk> 3000
